ff
ff
fe
fd
fc
fa
f8
f5
f2
ef
eb
e7
e3
df
da
d5
d0
ca
c5
bf
b9
b3
ad
a7
a1
9b
94
8e
88
82
7c
76
70
6b
65
60
5a
55
50
4c
47
42
3e
3a
36
32
2f
2c
28
25
23
20
1d
1b
19
17
15
13
11
10
0e
0d
0c
0b
0a
09
08
07
06
06
05
05
04
04
03
03
03
02
02
02
02
01
01
01
01
01
01
01
01
00
00
00
00
00
00
00
00
00
00
00
00
00
00
00
00
00
00
00
00
00
00
00
00
00
00
00
00
00
00
00
00
00
00
00
00
00
00
00
00
00
00
00
00
00
00
00
00
00
00
00
00
00
00
00
00
00
00
00
00
00
00
00
00
00
00
00
00
00
00
00
00
00
00
00
00
00
00
00
00
00
00
00
00
00
00
00
00
00
00
00
00
00
00
00
00
00
00
00
00
00
00
00
00
00
00
00
00
00
00
00
00
00
00
00
00
00
00
00
00
00
00
00
00
00
00
00
00
00
00
00
00
00
00
00
00
00
00
00
00
00
00
00
00
00
00
00
00
00
00
00
00
00
00
00
00
00
00
00
00
00
00
00
00
00
00
00
